int var0 = 0;
int var1 = 1;
int var2 = 2;
int var3 = 3;
int var4 = 4;
int var5 = 5;
int var6 = 6;
int var7 = 7;
int var8 = 8;
int var9 = 9;
int var10 = 10;
int var11 = 11;
int var12 = 12;
int var13 = 13;
int var14 = 14;
int var15 = 15;
int var16 = 16;
int var17 = 17;
int var18 = 18;
int var19 = 19;
int var20 = 20;
int var21 = 21;
int var22 = 22;
int var23 = 23;
int var24 = 24;
int var25 = 25;
int var26 = 26;
int var27 = 27;
int var28 = 28;
int var29 = 29;
int var30 = 30;
int var31 = 31;
int var32 = 32;
int var33 = 33;
int var34 = 34;
int var35 = 35;
int var36 = 36;
int var37 = 37;
int var38 = 38;
int var39 = 39;
int var40 = 40;
int var41 = 41;
int var42 = 42;
int var43 = 43;
int var44 = 44;
int var45 = 45;
int var46 = 46;
int var47 = 47;
int var48 = 48;
int var49 = 49;
int var50 = 50;
int var51 = 51;
int var52 = 52;
int var53 = 53;
int var54 = 54;
int var55 = 55;
int var56 = 56;
int var57 = 57;
int var58 = 58;
int var59 = 59;
int var60 = 60;
int var61 = 61;
int var62 = 62;
int var63 = 63;
int var64 = 64;
int var65 = 65;
int var66 = 66;
int var67 = 67;
int var68 = 68;
int var69 = 69;
int var70 = 70;
int var71 = 71;
int var72 = 72;
int var73 = 73;
int var74 = 74;
int var75 = 75;
int var76 = 76;
int var77 = 77;
int var78 = 78;
int var79 = 79;
int var80 = 80;
int var81 = 81;
int var82 = 82;
int var83 = 83;
int var84 = 84;
int var85 = 85;
int var86 = 86;
int var87 = 87;
int var88 = 88;
int var89 = 89;
int var90 = 90;
int var91 = 91;
int var92 = 92;
int var93 = 93;
int var94 = 94;
int var95 = 95;
int var96 = 96;
int var97 = 97;
int var98 = 98;
int var99 = 99;
int var100 = 100;
int var101 = 101;
int var102 = 102;
int var103 = 103;
int var104 = 104;
int var105 = 105;
int var106 = 106;
int var107 = 107;
int var108 = 108;
int var109 = 109;
int var110 = 110;
int var111 = 111;
int var112 = 112;
int var113 = 113;
int var114 = 114;
int var115 = 115;
int var116 = 116;
int var117 = 117;
int var118 = 118;
int var119 = 119;
int var120 = 120;
int var121 = 121;
int var122 = 122;
int var123 = 123;
int var124 = 124;
int var125 = 125;
int var126 = 126;
int var127 = 127;
int var128 = 128;
int var129 = 129;
int var130 = 130;
int var131 = 131;
int var132 = 132;
int var133 = 133;
int var134 = 134;
int var135 = 135;
int var136 = 136;
int var137 = 137;
int var138 = 138;
int var139 = 139;
int var140 = 140;
int var141 = 141;
int var142 = 142;
int var143 = 143;
int var144 = 144;
int var145 = 145;
int var146 = 146;
int var147 = 147;
int var148 = 148;
int var149 = 149;
int var150 = 150;
int var151 = 151;
int var152 = 152;
int var153 = 153;
int var154 = 154;
int var155 = 155;
int var156 = 156;
int var157 = 157;
int var158 = 158;
int var159 = 159;
int var160 = 160;
int var161 = 161;
int var162 = 162;
int var163 = 163;
int var164 = 164;
int var165 = 165;
int var166 = 166;
int var167 = 167;
int var168 = 168;
int var169 = 169;
int var170 = 170;
int var171 = 171;
int var172 = 172;
int var173 = 173;
int var174 = 174;
int var175 = 175;
int var176 = 176;
int var177 = 177;
int var178 = 178;
int var179 = 179;
int var180 = 180;
int var181 = 181;
int var182 = 182;
int var183 = 183;
int var184 = 184;
int var185 = 185;
int var186 = 186;
int var187 = 187;
int var188 = 188;
int var189 = 189;
int var190 = 190;
int var191 = 191;
int var192 = 192;
int var193 = 193;
int var194 = 194;
int var195 = 195;
int var196 = 196;
int var197 = 197;
int var198 = 198;
int var199 = 199;
int var200 = 200;
int var201 = 201;
int var202 = 202;
int var203 = 203;
int var204 = 204;
int var205 = 205;
int var206 = 206;
int var207 = 207;
int var208 = 208;
int var209 = 209;
int var210 = 210;
int var211 = 211;
int var212 = 212;
int var213 = 213;
int var214 = 214;
int var215 = 215;
int var216 = 216;
int var217 = 217;
int var218 = 218;
int var219 = 219;
int var220 = 220;
int var221 = 221;
int var222 = 222;
int var223 = 223;
int var224 = 224;
int var225 = 225;
int var226 = 226;
int var227 = 227;
int var228 = 228;
int var229 = 229;
int var230 = 230;
int var231 = 231;
int var232 = 232;
int var233 = 233;
int var234 = 234;
int var235 = 235;
int var236 = 236;
int var237 = 237;
int var238 = 238;
int var239 = 239;
int var240 = 240;
int var241 = 241;
int var242 = 242;
int var243 = 243;
int var244 = 244;
int var245 = 245;
int var246 = 246;
int var247 = 247;
int var248 = 248;
int var249 = 249;
int var250 = 250;
int var251 = 251;
int var252 = 252;
int var253 = 253;
int var254 = 254;
int var255 = 255;
int var256 = 256;
int var257 = 257;
int var258 = 258;
int var259 = 259;
int var260 = 260;
int var261 = 261;
int var262 = 262;
int var263 = 263;
int var264 = 264;
int var265 = 265;
int var266 = 266;
int var267 = 267;
int var268 = 268;
int var269 = 269;
int var270 = 270;
int var271 = 271;
int var272 = 272;
int var273 = 273;
int var274 = 274;
int var275 = 275;
int var276 = 276;
int var277 = 277;
int var278 = 278;
int var279 = 279;
int var280 = 280;
int var281 = 281;
int var282 = 282;
int var283 = 283;
int var284 = 284;
int var285 = 285;
int var286 = 286;
int var287 = 287;
int var288 = 288;
int var289 = 289;
int var290 = 290;
int var291 = 291;
int var292 = 292;
int var293 = 293;
int var294 = 294;
int var295 = 295;
int var296 = 296;
int var297 = 297;
int var298 = 298;
int var299 = 299;
int var300 = 300;
int var301 = 301;
int var302 = 302;
int var303 = 303;
int var304 = 304;
int var305 = 305;
int var306 = 306;
int var307 = 307;
int var308 = 308;
int var309 = 309;
int var310 = 310;
int var311 = 311;
int var312 = 312;
int var313 = 313;
int var314 = 314;
int var315 = 315;
int var316 = 316;
int var317 = 317;
int var318 = 318;
int var319 = 319;
int var320 = 320;
int var321 = 321;
int var322 = 322;
int var323 = 323;
int var324 = 324;
int var325 = 325;
int var326 = 326;
int var327 = 327;
int var328 = 328;
int var329 = 329;
int var330 = 330;
int var331 = 331;
int var332 = 332;
int var333 = 333;
int var334 = 334;
int var335 = 335;
int var336 = 336;
int var337 = 337;
int var338 = 338;
int var339 = 339;
int var340 = 340;
int var341 = 341;
int var342 = 342;
int var343 = 343;
int var344 = 344;
int var345 = 345;
int var346 = 346;
int var347 = 347;
int var348 = 348;
int var349 = 349;
int var350 = 350;
int var351 = 351;
int var352 = 352;
int var353 = 353;
int var354 = 354;
int var355 = 355;
int var356 = 356;
int var357 = 357;
int var358 = 358;
int var359 = 359;
int var360 = 360;
int var361 = 361;
int var362 = 362;
int var363 = 363;
int var364 = 364;
int var365 = 365;
int var366 = 366;
int var367 = 367;
int var368 = 368;
int var369 = 369;
int var370 = 370;
int var371 = 371;
int var372 = 372;
int var373 = 373;
int var374 = 374;
int var375 = 375;
int var376 = 376;
int var377 = 377;
int var378 = 378;
int var379 = 379;
int var380 = 380;
int var381 = 381;
int var382 = 382;
int var383 = 383;
int var384 = 384;
int var385 = 385;
int var386 = 386;
int var387 = 387;
int var388 = 388;
int var389 = 389;
int var390 = 390;
int var391 = 391;
int var392 = 392;
int var393 = 393;
int var394 = 394;
int var395 = 395;
int var396 = 396;
int var397 = 397;
int var398 = 398;
int var399 = 399;
int var400 = 400;
int var401 = 401;
int var402 = 402;
int var403 = 403;
int var404 = 404;
int var405 = 405;
int var406 = 406;
int var407 = 407;
int var408 = 408;
int var409 = 409;
int var410 = 410;
int var411 = 411;
int var412 = 412;
int var413 = 413;
int var414 = 414;
int var415 = 415;
int var416 = 416;
int var417 = 417;
int var418 = 418;
int var419 = 419;
int var420 = 420;
int var421 = 421;
int var422 = 422;
int var423 = 423;
int var424 = 424;
int var425 = 425;
int var426 = 426;
int var427 = 427;
int var428 = 428;
int var429 = 429;
int var430 = 430;
int var431 = 431;
int var432 = 432;
int var433 = 433;
int var434 = 434;
int var435 = 435;
int var436 = 436;
int var437 = 437;
int var438 = 438;
int var439 = 439;
int var440 = 440;
int var441 = 441;
int var442 = 442;
int var443 = 443;
int var444 = 444;
int var445 = 445;
int var446 = 446;
int var447 = 447;
int var448 = 448;
int var449 = 449;
int var450 = 450;
int var451 = 451;
int var452 = 452;
int var453 = 453;
int var454 = 454;
int var455 = 455;
int var456 = 456;
int var457 = 457;
int var458 = 458;
int var459 = 459;
int var460 = 460;
int var461 = 461;
int var462 = 462;
int var463 = 463;
int var464 = 464;
int var465 = 465;
int var466 = 466;
int var467 = 467;
int var468 = 468;
int var469 = 469;
int var470 = 470;
int var471 = 471;
int var472 = 472;
int var473 = 473;
int var474 = 474;
int var475 = 475;
int var476 = 476;
int var477 = 477;
int var478 = 478;
int var479 = 479;
int var480 = 480;
int var481 = 481;
int var482 = 482;
int var483 = 483;
int var484 = 484;
int var485 = 485;
int var486 = 486;
int var487 = 487;
int var488 = 488;
int var489 = 489;
int var490 = 490;
int var491 = 491;
int var492 = 492;
int var493 = 493;
int var494 = 494;
int var495 = 495;
int var496 = 496;
int var497 = 497;
int var498 = 498;
int var499 = 499;
int var500 = 500;
int conta(void) {
	int sum;
 	sum=var0+var1+var2+var3+var4+var5+var6+var7+var8+var9+var10+var11+var12+var13+var14+var15+var16+var17+var18+var19+var20+var21+var22+var23+var24+var25+var26+var27+var28+var29+var30+var31+var32+var33+var34+var35+var36+var37+var38+var39+var40+var41+var42+var43+var44+var45+var46+var47+var48+var49+var50+var51+var52+var53+var54+var55+var56+var57+var58+var59+var60+var61+var62+var63+var64+var65+var66+var67+var68+var69+var70+var71+var72+var73+var74+var75+var76+var77+var78+var79+var80+var81+var82+var83+var84+var85+var86+var87+var88+var89+var90+var91+var92+var93+var94+var95+var96+var97+var98+var99+var100+var101+var102+var103+var104+var105+var106+var107+var108+var109+var110+var111+var112+var113+var114+var115+var116+var117+var118+var119+var120+var121+var122+var123+var124+var125+var126+var127+var128+var129+var130+var131+var132+var133+var134+var135+var136+var137+var138+var139+var140+var141+var142+var143+var144+var145+var146+var147+var148+var149+var150+var151+var152+var153+var154+var155+var156+var157+var158+var159+var160+var161+var162+var163+var164+var165+var166+var167+var168+var169+var170+var171+var172+var173+var174+var175+var176+var177+var178+var179+var180+var181+var182+var183+var184+var185+var186+var187+var188+var189+var190+var191+var192+var193+var194+var195+var196+var197+var198+var199+var200+var201+var202+var203+var204+var205+var206+var207+var208+var209+var210+var211+var212+var213+var214+var215+var216+var217+var218+var219+var220+var221+var222+var223+var224+var225+var226+var227+var228+var229+var230+var231+var232+var233+var234+var235+var236+var237+var238+var239+var240+var241+var242+var243+var244+var245+var246+var247+var248+var249+var250+var251+var252+var253+var254+var255+var256+var257+var258+var259+var260+var261+var262+var263+var264+var265+var266+var267+var268+var269+var270+var271+var272+var273+var274+var275+var276+var277+var278+var279+var280+var281+var282+var283+var284+var285+var286+var287+var288+var289+var290+var291+var292+var293+var294+var295+var296+var297+var298+var299+var300+var301+var302+var303+var304+var305+var306+var307+var308+var309+var310+var311+var312+var313+var314+var315+var316+var317+var318+var319+var320+var321+var322+var323+var324+var325+var326+var327+var328+var329+var330+var331+var332+var333+var334+var335+var336+var337+var338+var339+var340+var341+var342+var343+var344+var345+var346+var347+var348+var349+var350+var351+var352+var353+var354+var355+var356+var357+var358+var359+var360+var361+var362+var363+var364+var365+var366+var367+var368+var369+var370+var371+var372+var373+var374+var375+var376+var377+var378+var379+var380+var381+var382+var383+var384+var385+var386+var387+var388+var389+var390+var391+var392+var393+var394+var395+var396+var397+var398+var399+var400+var401+var402+var403+var404+var405+var406+var407+var408+var409+var410+var411+var412+var413+var414+var415+var416+var417+var418+var419+var420+var421+var422+var423+var424+var425+var426+var427+var428+var429+var430+var431+var432+var433+var434+var435+var436+var437+var438+var439+var440+var441+var442+var443+var444+var445+var446+var447+var448+var449+var450+var451+var452+var453+var454+var455+var456+var457+var458+var459+var460+var461+var462+var463+var464+var465+var466+var467+var468+var469+var470+var471+var472+var473+var474+var475+var476+var477+var478+var479+var480+var481+var482+var483+var484+var485+var486+var487+var488+var489+var490+var491+var492+var493+var494+var495+var496+var497+var498+var499+var500;
	return sum;
}
